BF011410
BE414B55
BCD7FE75
BE915D7A
BE060480
BDE95265
BEB52509
BE9C378D
BE986025
BF318103
BDEB987D
BF1EA252
BF341760
BEBC6A0F
BF038976
BEFF89D8
BEC99329
BF00DA8E
BEFB736F
BF095DE5
BF0F67EB
BF4338CB
BF45D6C3
BED6EA6D
3CF74748
BEAB2B58
BEAE42CF
BCC6AAF7
BED9D9E2
BE8C0E10
BE48D0CA
BE7B320F
BE5D84C7
BE19F940
BE5118F4
BEAE7D7C
BE6E8501
BECAF2D2
BF4E1008
BEA154FD
BF1602ED
BECC5724
3DC5042F
BDB66774
BDB4D610
3D029231
BCF54275
BF1E008D
BE3DD201
BF09E7BE
BF1A0C23
BE8D9B03
BF027023
BF15D418
BF23C107
BE9A54F7
BEF378AF
BEE142D5
BF0DCE2E
BF03ED63
BF1EA5CC
BF0DF54D
BED028BA
BEEFC19A
BEB476E7
3BD4A4E5
BF0514D7
BE1F2042
BF14BE13
BF064F2A
BEE052C1
BDA03C55
BBF70C66
3D9A6D29
3DCB6422
3A9D9AEA
3E266BDB
BE7F408E
BEFFB954
BE866EBA
BF1330E6
BF1F094D
BEF4A519
3E6D6097
BE8B1773
3CB62A7D
BEEA0433
BED9D344
BF05D98B
BEB2CEE6
BF1B5C37
BF303771
BEB6C979
BF321119
BEE500BE
BF5AB2F8
