BA0F7D23
BBD5C4B5
BCB9066C
3D1CE974
BC5559B0
3C80E7BF
3B861386
3D3CB51D
BB3A7762
BCCCAFB4
3C9BAF6A
399930BE
3D0CAA1D
BCE4F0EF
BD001EE3
3C705946
BC0549A6
3CF2C2DD
BC15599E
B97F6C38
BC8843FF
BD05DE83
BC8E535C
3C05BB8F
3A324869
BC1D3DBC
3CA92480
3D09C348
3BD84811
BC2A1ADE
BBEB49B3
BB2FE6BC
3AB54069
BAAA81FA
BD002C67
3B95013B
BC48DAD2
3CFF69B5
BC96C337
BCC3849C
BCAC62B9
3BDB018F
BA4CF3A5
BD0E2633
3CDC73BF
BCB2B765
BD7ADD3E
3BF711EE
BD243842
BD17A598
BC11D283
3D19EAA5
3D23F22C
3BEBFD9C
BC90E50A
3D4FDA1C
BD984E3A
BBB156ED
3D130A7F
BCED540A
BA55E242
BA61E6AB
BC7D49D4
BCA6E7FC
3C3F33F2
BD838AD8
3CB79A9F
BCB99855
BCF3DF79
BD086A0A
3B3FD337
BD0CE52F
3BA37E58
BD1C398E
BD0B744C
BCB9E274
3CE4519F
BB734AF3
3B7EE816
BC909DAD
3CBAD6F9
BCCF8903
BCB1F378
BCABCA1A
BC9A8743
BD1108AD
BBCC62AA
BD050A51
3C1DC8E6
3B08ADDC
3AAF9A63
3BBC12E1
3C9C347D
3B3928F8
BC50558B
3C4BF931
BD41D3F9
BB00BB2C
BB69BD6C
3CD5305C
BD1767EB
BCA3D92F
BC20CBF2
3D1C27A9
BC97B5BA
3BBF9EB9
BCA16135
BBBA82A5
BBCF0818
BCAA146A
BD04B38A
3BD5EB6E
BBF6386F
BC66F6B0
3C440571
3D06CC12
BC281085
BACCAEAA
3B30B36E
BBBEB1BC
3B3A6A25
3BAB5DA8
3D0DBCB0
3C568E9A
3C9BEA06
BCE02546
3CAA7A73
BCD77389
3D155198
3C41A620
BC9FC4B0
BCB66F44
BB21927A
3C31B59B
3BE9BFD9
BC182B18
BCA06E8C
BC3B220E
3B79354A
3A786519
BB802B39
3B31A348
3D3C82AF
BC86BF99
BC85908C
BD784736
BC00035E
BABF0065
BCD0D1E5
3CA2F0D5
3C919B55
3C7F3409
BCAA97CD
BBED15FF
3B138FA2
3C346FA0
3B9E2C61
3CC44CF5
BC8AE25A
BCD449CC
3D1598BD
39561E9A
BC665A41
BCF89D59
BCDA1749
BD832AC0
3C0F55B7
3B717F3B
3C870013
BC52A2A9
3C1613A9
3CBDA6FE
BC556300
BCFA4160
3C26B4D5
BC9F0DDC
3BEB5A25
BB5AF1F4
BC668E9F
3AFD0DDB
BCBE12CF
3BCA679B
BD0F64C1
BD395E9F
3C62473E
3DB97061
3CB098E7
BD4F2B79
3C3358F7
3906EF14
BC903632
BCF9A3F1
BD773555
BAAC0833
3C6E5C80
BD3A54C7
3D206573
BCC15188
BD888400
BB651EDD
3D028695
3B6041AB
3B0B7A85
BD3FC252
3D0ABEA8
3CFF85BB
BD2EF549
BD89E562
BAECA330
BCDAE0F2
BD38EC48
BD3011A6
BD5713BA
BC06B24E
BC727E6B
3BEAFF82
BD4B4D76
BC9124F4
3D04BDB2
BCA1701F
3D341D67
BDD437C8
3C2FA17B
BCFFDB1D
BD2C2DAF
3B28E168
BB4A759B
3B04F867
BD0E977C
BD174914
3C18BC18
BD27C43A
3D00995A
BC5892D7
BC8EA6C2
BCD0A78C
BD4FEB35
3CCBF076
3D46527F
3D8109A5
BCC6C178
BD021769
BCF0C566
BB1431B3
BCFD4A57
3C29C2E7
3BDCB9AB
BC9ED21F
BC514A2B
3CDD2968
BC79180E
BD3F60D9
3CCAB583
3D63427C
BD686223
BD0534B1
3CF0E037
BBBDDF4D
BD3648D6
3C273196
BC9A3394
3B81DA7D
3D65A07E
BC95F202
BD84B47A
3D2ED140
BCAC11D7
3CE80113
BD7FF441
BD4B2B72
3B864CE5
BD0C97FA
BAB97A2D
3CD97E45
3C5D5B6E
BB27D0E9
BD9FFB8B
BCEB3851
3C83473D
3D8B8D09
BBAB8FBE
BD244827
3C38C775
BC2A545F
BD29F358
3ACADE87
3C8D1250
3C4FF982
BCCFAB93
BD2A374B
3BF97A8F
BC8839D6
3B422245
BCA94DE5
BC9D47FE
BC24DC8B
BBB1D313
3CE2960A
BC68D81A
BC165B96
BCF114A5
BBB8A5BB
3C91E101
3D9DE1DD
3CEC3282
BC4B0058
3A11AA86
BCA6A25E
BC6298E3
3A869C53
BD43E469
BD073810
3D600DFE
BC94986A
BCE2AD5B
BB8DE4E1
BC84320F
3D49945D
3D2D9256
3CF7D1D9
BD64ECFE
3DBEBC1C
3D71FB8A
3C95F263
BD218B08
BD5F89AB
BD1D8C1A
3D09CD2A
BC4D39DD
BADCCA94
3CD9BB19
BD105109
3D22A2D1
3CA6DF3F
BD68002A
BBEC6DA5
3D358D32
BD8599DB
BAB36EC4
3C3B7C5A
3BA7CFF0
BD05FD16
3D56B85D
BC95111D
BAFA69E5
BC34E826
BAE7CE8B
BDA43AD3
3CD6DF50
3C8004CE
BD056EFE
BD399362
BD711089
BC3CF466
3CA248DC
3BA7E5FB
BD4993E2
3BA1EF6C
BBC0AA65
BC05EEE6
BC15F540
3CE31592
3D6418F1
BD03DBB5
BB9712DE
3B07C726
BD8F740C
3CD9C0CB
3A3E79F2
3C6AFCF0
BB0280BF
BCE5ED98
BD54150C
BD39DB7A
3CC16EA6
3CC10F69
3D61FD96
BC0AA3DE
3D021D11
BCDDE3F9
3D77AB85
3D8A5469
BCEFCC7E
BC65A0E3
