3F7B6B19
3F7E8D56
3F7FB131
3F7CEF93
3F7FDBFD
3F802EB4
3F8184E8
3F8125E9
3F801AE3
3F8055AB
3F8012A0
3F808634
3F7FEE52
3F7F4DEF
3F7ED2A4
3F80937D
3F8048E9
3F801CE6
3F7C55BB
3F7B69C4
3F846937
3F7B6BD8
3F8063BE
3F817372
3F821D44
3F81F954
3F7FFA56
3F80992F
3F808230
3F7E6E67
3F7E7FAC
3F7E9C3F
3F7CBA59
3F809B73
3F8102AB
3F808EE7
3F8139D1
3F80DC2D
3F7EF534
3F80D620
3F7F2DE7
3F7ED28E
3F7DEA83
3F7DDA2B
3F806D97
3F80180E
3F7CBE52
3F7E5C92
3F7F9052
3F7ED79C
3F7E508B
3F809EA2
3F81CDEA
3F7B51CD
3F7D6109
3F80BE45
3F7F73C0
3F8075C0
3F81E6BC
3F7CD4A9
3F80CD75
3F7BD254
3F805A3A
3F7EF535
3F7B4331
3F8107A4
3F7EF071
3F7E14CF
3F7E03A2
3F7F0B15
3F80735E
3F7CEF47
3F803779
3F81493E
3F806810
3F80FC0D
3F7C582C
3F804158
3F810653
3F8096EA
3F82E5E2
3F808F3A
3F7DBB38
3F804BBE
3F831F34
3F804953
3F7F9137
3F7B220C
3F7B945F
3F8065A6
3F7AF5DC
3F7B7114
3F7B6900
3F814ABF
3F802EBA
3F7DCD27
3F80ECC3
3F803FED
3F7CC557
3F7FB030
3F80BC7C
3F81C4F7
3F8224C9
3F8005BA
3F800787
3F801AA5
3F7D5DA1
3F7D764C
3F7D39F9
3F810DD6
3F81245A
3F8060B2
3F794BE9
3F79C425
3F81515B
3F7F9904
3F7DEA81
3F804DE0
3F8290C7
3F7A29E0
3F7C0DB8
3F7E17D0
3F7FF29A
3F804FA4
3F8113A5
3F815D85
3F8211A8
3F80A788
3F800524
3F80887C
3F7F5CE1
3F7F0985
3F805257
3F7CE5E4
3F7ED453
3F7F61BD
3F7E9386
3F7F71DE
3F80510B
3F7BCE25
3F80628F
3F7E2147
3F7F6B16
3F752689
3F7E98C9
3F801133
3F7EC179
3F7F903F
3F818656
3F7CB814
3F807559
3F7C2F4C
3F7EDFED
3F8086FC
3F7E847F
3F7C3471
3F7ED01A
3F80DB52
3F7BA7FF
3F8087BD
3F7C3B42
3F7B6DDA
3F80924C
3F7F5CF1
3F80E64A
3F7C5F05
3F7D4526
3F7EF338
3F7DFDED
3F7CEE49
3F7AF13E
3F79E4BB
3F7B722F
3F7B5724
3F7A34BD
3F7C83DA
3F81014A
3F7E13BB
3F7FD9DB
3F7EF379
3F806C1A
3F80D439
3F7EE2D6
3F8006BB
3F7C934E
3F80E104
3F7E8FCC
3F809072
3F7E16EE
3F7C36B1
3F7D2446
3F7982D1
3F7E135A
3F7D5334
3F8197E2
3F8000A3
3F80DB77
3F7CACBF
3F7DF901
3F7E6A88
3F7E6620
3F7D5B0A
3F808F23
3F802D3C
3F7FCE25
3F8248C8
3F7EE7C8
3F80525F
3F7BE563
3F7D96EA
3F7E5B9E
3F7F90DF
3F7E09C3
3F80360E
3F7D2388
3F7D6F12
3F802A2F
3F7DC460
3F7F65F8
3F836FCB
3F8016D3
3F80BA8E
3F819819
3F7E3A0E
3F7E9146
3F7F9A94
3F7EAA00
3F7E6EEA
3F7D5E39
3F7E8297
3F7F27A3
3F7D8B2F
3F806627
3F80C118
3F7EE196
3F80289E
3F7D536C
3F7CB21C
3F7EFB21
3F7CF04B
3F7E511A
3F7EB493
3F7ED954
3F7F091A
3F7CAB52
3F7D9DB6
3F80961E
3F818444
3F7E35D8
3F81E281
3F7E4324
3F7FA0EA
3F7D3C8E
3F803CC0
3F7F64B3
3F7F8204
