3F6287CA
3F83C83A
3F85B8CC
3F80B11D
3F894A4F
3F84B2F6
3F72A7C8
3F804A27
3F83E914
3F89B3C1
3F896A23
3F85F130
3F7F7A04
3F7AF349
3F816238
3F9234AF
3F83BB80
3F7345F7
3F73B78F
3F867499
3F7B8E18
3F800499
3F8AF994
3F63EB7C
3F867A56
3F62CD67
3F80AB45
3F8623DD
3F887A66
3F86F6BE
3F8130E7
3F847B3B
3F8354BD
3F802171
3F6CBC64
3F803F3C
3F87901F
3F8896CE
3F77AB29
3F889341
3F828C17
3F86B41E
3F8860BC
3F80CFD0
3F7E59F9
3F7341B1
3F6C9606
3F836B58
3F88C32E
3F7928E4
3F847CC4
3F7ACC49
3F80CF7C
3F818AA4
3F73E5F5
3F8F9B87
3F70C0FD
3F8AF686
3F6AFC77
3F7018EE
3F78C7A2
3F703430
3F7C3C95
3F873B79
3F81806E
3F81F5E8
3F743DF3
3F810961
3F82E81F
3F641A46
3F8A841B
3F89F607
3F84F835
3F807226
3F897402
3F83D162
3F8121EE
3F7F7914
3F70580D
3F6E1037
3F780B6F
3F850FFB
3F858140
3F580BF7
3F73ABB6
3F75FA19
3F7A784C
3F7B28D0
3F83D1AE
3F73333E
3F83788F
3F8216C3
3F83CE9A
3F7F4781
3F6F9D19
3F809270
3F784E05
3F85CFE0
3F86949A
3F7F9D70
3F85DFD7
3F81FDD2
3F8BB174
3F6FDCD9
3F6B30D1
3F821671
3F78A294
3F6A7BF2
3F7C66C7
3F86D98E
3F79CE1A
3F883E0C
3F8217AD
3F823B30
3F82288D
3F7B8F59
3F876AC7
3F80D231
3F7D1D4B
3F765708
3F816E97
3F80EAE0
3F7721D5
3F812CDC
3F6E2392
3F7D9A2F
3F793381
3F89FB5F
3F6B5398
3F8A841D
3F8353AE
3F817BDA
3F849841
3F8F713B
3F6E8047
3F8D536F
3F82F1C7
3F7DBE84
3F82D9B4
3F7B8B4A
3F716089
3F8B439E
3F6F0B85
3F77F8B7
3F84C223
3F877F5A
3F77522C
3F7F3678
3F823B82
3F81E1DA
3F80AE93
3F824870
3F808E54
3F825AFD
3F851CCC
3F78AD42
3F81E262
3F867EDF
3F7E680F
3F851040
3F8D0F08
3F888AF4
3F795A42
3F776198
3F6272FE
3F8585F3
3F6762C3
3F7CBEF5
3F70B66F
3F77CFEF
3F7B5F25
3F6C000C
3F6360FC
3F7CF713
3F6995CE
3F7E8DEB
3F828A00
3F7245B2
3F795EF3
3F80C98C
3F7C296D
3F84B224
3F908A76
3F85F200
3F6FFF87
3F7D7033
3F87559E
3F82C870
3F7DBE90
3F8093D6
3F7F88DE
3F83655B
3F83BE91
3F69C19F
3F8C9DA1
3F8D0BFA
3F979307
3F7C0B55
3F86E807
3F7C681A
3F823282
3F757D5F
3F859717
3F7CB068
3F6014D8
3F81D54D
3F890716
3F958C11
3F788465
3F8B4446
3F816BE2
3F8E525A
3F821F61
3F8649E7
3F6CA705
3F4C9E1E
3F865611
3F8CB26E
3F922664
3F9009D4
3F8188FF
3F6EA0CE
3F8BB3F4
3F66CD75
3F729888
3F85B8BA
3F865D99
3F7CE8CA
3F55DABE
3F8A0998
3F7C1DE7
3F7D69E0
3F8B5CB5
3F6D44A8
3F787E9D
3F7FCE65
3F8E4CE8
3F9035D7
3F8A3581
3F7DA85C
3F7CA38B
3F56080F
3F79EA59
3F8C3290
3F80F10A
3F4F0C6A
3F667243
3F8C93EA
3F6E6FF9
3F81AD24
3F8A3654
3F9C0A48
3F6EF19B
3F65A0DE
3F69E71A
3F6F8D13
3F6D99D3
3F82DB3A
3F85568C
3F863723
3F810275
3F78B183
3F71D07B
3F619527
3F852938
3F8BE984
3F62EEB6
3F510C48
3F8878D8
3F9C12B7
3F8B65EF
3F83D46D
3F865F6F
3F6916A0
3F86898B
3F876579
3F886903
3F841161
3F74402F
3F657221
3F80591C
3F75BB01
3F9381B9
3F7AC665
3F87763A
3F6B3B5F
3F89FF09
3F9790EF
3F65607B
3F84E20A
3F929092
3F902293
3F8B2B44
3F787608
3F85B871
3F5B658F
3F535FF3
3F6E0245
3F88F00D
3F767A57
3F7D91B6
3F8AE3CF
3F7D0118
3F8DB57B
3F70EE51
3F8CFE64
3F870E8E
3F78D7FF
3F8A2B3B
3F9297DA
3F8CCDA3
3F89D438
3F8FC7A4
3F814955
3F7B605D
3F8B562A
3F83F907
3F89EADD
3F83B2C5
3F7AFB2F
3F78DB61
3F879517
3F806219
3F7628F6
3F80D69E
3F8C16EF
3F7609AB
3F7247F7
3F73513B
3F8CAD81
3F8A9753
3F75448D
3F646227
3F9BFC34
3F82B9F3
3F7D1877
3F847D5E
3F45E9D0
3F8A8995
3F7F06DA
3F7C61DE
3F7AC078
3F5B69FB
3F826ED1
3F70508C
3F85681A
3F7DA75F
3F85108B
3F65364D
3F7D63CC
3F80C2D4
3F619BE1
3F775631
3F88E88F
3F82CB90
3F8D78C9
3F8706EE
3F9011B6
3F85C08C
3F92038F
3F929C25
3F85AA95
3F78E565
3F770B2F
3F63EB85
3F755D96
3F6A51E6
3F8259F2
3F452435
3F86AFE1
3F968CDB
3F814297
3F7DAD78
3F889739
3F849738
3F8BB51D
3F92EA38
3F8176BA
3F65E99E
3F5AC8AD
3F82467E
3F78CB83
3F866A0C
3F89F388
